233e
7f17
3b79
2f71
d83d
614a
81b7
14b4
cfda
abd4
d8d3
f7b2
a581
d8e3
010f
f932
4ce1
ebe9
fd31
2a48
0a10
bfae
bed8
11de
4fcc
d24f
7f6c
7ff5
6e60
485c
2871
e5e1
fd38
f8b2
ddde
d1cf
db8c
cc83
d9a7
162b
1cf6
063f
81bd
ca20
ffe1
25d2
8137
6ce3
59e1
b4cb
bff4
3e7f
e094
2e7f
5ec8
818f
422b
81cf
2863
b8c0
b705
c77f
dcd2
f5f0
7f0e
d6bb
57e2
f1e2
aa2e
7b81
eae4
1544
49c6
0694
e789
00f8
2045
d8fa
812b
6933
0001
