3e23
177f
793b
712f
3dd8
4a61
b781
b414
dacf
d4ab
d3d8
b2f7
81a5
e3d8
0f01
32f9
e14c
e9eb
bede
11cc
4f4f
d26c
7fe5
38fd
b2f8
dedd
cfd1
31fd
482a
100a
aebf
d8f5
7f60
6e5c
4871
28e1
8cdb
83cc
a7d9
2b16
f61c
3f06
bdb7
7fc7
d281
20ca
e1dc
f0f5
0eff
d225
377f
bbd6
e281
e36c
e157
e2f1
2e59
cbb4
f4aa
817b
e4bf
7f3e
94ea
4415
c6e0
7f2e
c849
9406
895e
8f81
2be7
f800
4542
cf81
6320
fad8
2b28
c0b8
0581
3369
0100
