233e
7f17
3b79
2f71
d83d
614a
81b7
14b4
cfda
abd4
d8d3
f7b2
a581
d8e3
010f
f932
4ce1
ebe9
debe
cc11
4f4f
6cd2
e57f
fd38
f8b2
ddde
d1cf
fd31
2a48
0a10
bfae
f5d8
607f
5c6e
7148
e128
db8c
cc83
d9a7
162b
1cf6
063f
b7bd
c77f
81d2
ca20
dce1
f5f0
ff0e
25d2
7f37
d6bb
81e2
6ce3
57e1
f1e2
592e
b4cb
aaf4
7b81
bfe4
3e7f
ea94
1544
e0c6
2e7f
49c8
0694
5e89
818f
e72b
00f8
4245
81cf
2063
d8fa
282b
b8c0
8105
6933
0001
